/* Generated by Edge Impulse
 *
 * Permission is hereby granted, free of charge, to any person obtaining a copy
 * of this software and associated documentation files (the "Software"), to deal
 * in the Software without restriction, including without limitation the rights
 * to use, copy, modify, merge, publish, distribute, sublicense, and/or sell
 * copies of the Software, and to permit persons to whom the Software is
 * furnished to do so, subject to the following conditions:
 *
 * The above copyright notice and this permission notice shall be included in
 * all copies or substantial portions of the Software.
 *
 * THE SOFTWARE IS PROVIDED "AS IS", WITHOUT WARRANTY OF ANY KIND, EXPRESS OR
 * IMPLIED, INCLUDING BUT NOT LIMITED TO THE WARRANTIES OF MERCHANTABILITY,
 * FITNESS FOR A PARTICULAR PURPOSE AND NONINFRINGEMENT. IN NO EVENT SHALL THE
 * AUTHORS OR COPYRIGHT HOLDERS BE LIABLE FOR ANY CLAIM, DAMAGES OR OTHER
 * LIABILITY, WHETHER IN AN ACTION OF CONTRACT, TORT OR OTHERWISE, ARISING FROM,
 * OUT OF OR IN CONNECTION WITH THE SOFTWARE OR THE USE OR OTHER DEALINGS IN THE
 * SOFTWARE.
 */

#ifndef _EI_CLASSIFIER_TFLITE_LEARN_7_H_
#define _EI_CLASSIFIER_TFLITE_LEARN_7_H_

#define EI_CLASSIFIER_TFLITE_LEARN_7_ARENA_SIZE     2982
const size_t tflite_learn_7_arena_size = 2982;

#ifdef EI_CLASSIFIER_TFLITE_ARENA_SIZE
#if EI_CLASSIFIER_TFLITE_ARENA_SIZE < EI_CLASSIFIER_TFLITE_LEARN_7_ARENA_SIZE
#undef EI_CLASSIFIER_TFLITE_ARENA_SIZE
#define EI_CLASSIFIER_TFLITE_ARENA_SIZE EI_CLASSIFIER_TFLITE_LEARN_7_ARENA_SIZE
#endif // #if EI_CLASSIFIER_TFLITE_ARENA_SIZE < EI_CLASSIFIER_TFLITE_LEARN_7_ARENA_SIZE
#else
#define EI_CLASSIFIER_TFLITE_ARENA_SIZE EI_CLASSIFIER_TFLITE_LEARN_7_ARENA_SIZE
#endif // #ifdef EI_CLASSIFIER_TFLITE_ARENA_SIZE

#if defined __GNUC__
#define ALIGN(X) __attribute__((aligned(X)))
#elif defined _MSC_VER
#define ALIGN(X) __declspec(align(X))
#elif defined __TASKING__
#define ALIGN(X) __align(X)
#else
#define ALIGN(X)
#endif

ALIGN(16) const unsigned char tflite_learn_7[] = {
  0x20, 0x00, 0x00, 0x00, 0x54, 0x46, 0x4c, 0x33, 0x00, 0x00, 0x00, 0x00,
  0x14, 0x00, 0x20, 0x00, 0x1c, 0x00, 0x18, 0x00, 0x14, 0x00, 0x10, 0x00,
  0x0c, 0x00, 0x00, 0x00, 0x08, 0x00, 0x04, 0x00, 0x14, 0x00, 0x00, 0x00,
  0x1c, 0x00, 0x00, 0x00, 0x8c, 0x00, 0x00, 0x00, 0xe4, 0x00, 0x00, 0x00,
  0x9c, 0x06, 0x00, 0x00, 0xac, 0x06, 0x00, 0x00, 0x70, 0x0d, 0x00, 0x00,
  0x03, 0x00, 0x00, 0x00, 0x01, 0x00, 0x00, 0x00, 0x10, 0x00, 0x00, 0x00,
  0x00, 0x00, 0x0a, 0x00, 0x10, 0x00, 0x0c, 0x00, 0x08, 0x00, 0x04, 0x00,
  0x0a, 0x00, 0x00, 0x00, 0x0c, 0x00, 0x00, 0x00, 0x1c, 0x00, 0x00, 0x00,
  0x3c, 0x00, 0x00, 0x00, 0x0f, 0x00, 0x00, 0x00, 0x73, 0x65, 0x72, 0x76,
  0x69, 0x6e, 0x67, 0x5f, 0x64, 0x65, 0x66, 0x61, 0x75, 0x6c, 0x74, 0x00,
  0x01, 0x00, 0x00, 0x00, 0x04, 0x00, 0x00, 0x00, 0x9c, 0xff, 0xff, 0xff,
  0x0a, 0x00, 0x00, 0x00, 0x04, 0x00, 0x00, 0x00, 0x08, 0x00, 0x00, 0x00,
  0x6f, 0x75, 0x74, 0x70, 0x75, 0x74, 0x5f, 0x30, 0x00, 0x00, 0x00, 0x00,
  0x01, 0x00, 0x00, 0x00, 0x04, 0x00, 0x00, 0x00, 0x4a, 0xf9, 0xff, 0xff,
  0x04, 0x00, 0x00, 0x00, 0x01, 0x00, 0x00, 0x00, 0x78, 0x00, 0x00, 0x00,
  0x02, 0x00, 0x00, 0x00, 0x34, 0x00, 0x00, 0x00, 0x04, 0x00, 0x00, 0x00,
  0xdc, 0xff, 0xff, 0xff, 0x0d, 0x00, 0x00, 0x00, 0x04, 0x00, 0x00, 0x00,
  0x13, 0x00, 0x00, 0x00, 0x43, 0x4f, 0x4e, 0x56, 0x45, 0x52, 0x53, 0x49,
  0x4f, 0x4e, 0x5f, 0x4d, 0x45, 0x54, 0x41, 0x44, 0x41, 0x54, 0x41, 0x00,
  0x08, 0x00, 0x0c, 0x00, 0x08, 0x00, 0x04, 0x00, 0x08, 0x00, 0x00, 0x00,
  0x0c, 0x00, 0x00, 0x00, 0x04, 0x00, 0x00, 0x00, 0x13, 0x00, 0x00, 0x00,
  0x6d, 0x69, 0x6e, 0x5f, 0x72, 0x75, 0x6e, 0x74, 0x69, 0x6d, 0x65, 0x5f,
  0x76, 0x65, 0x72, 0x73, 0x69, 0x6f, 0x6e, 0x00, 0x0e, 0x00, 0x00, 0x00,
  0xb4, 0x05, 0x00, 0x00, 0xac, 0x05, 0x00, 0x00, 0x84, 0x05, 0x00, 0x00,
  0x38, 0x05, 0x00, 0x00, 0x00, 0x05, 0x00, 0x00, 0x28, 0x04, 0x00, 0x00,
  0xc8, 0x03, 0x00, 0x00, 0xac, 0x00, 0x00, 0x00, 0xa4, 0x00, 0x00, 0x00,
  0x9c, 0x00, 0x00, 0x00, 0x94, 0x00, 0x00, 0x00, 0x8c, 0x00, 0x00, 0x00,
  0x6c, 0x00, 0x00, 0x00, 0x04, 0x00, 0x00, 0x00, 0xf2, 0xf9, 0xff, 0xff,
  0x04, 0x00, 0x00, 0x00, 0x58, 0x00, 0x00, 0x00, 0x0c, 0x00, 0x00, 0x00,
  0x08, 0x00, 0x0e, 0x00, 0x08, 0x00, 0x04, 0x00, 0x08, 0x00, 0x00, 0x00,
  0x10, 0x00, 0x00, 0x00, 0x28, 0x00, 0x00, 0x00, 0x00, 0x00, 0x06, 0x00,
  0x08, 0x00, 0x04, 0x00, 0x06, 0x00, 0x00, 0x00, 0x04, 0x00, 0x00, 0x00,
  0x01, 0x00, 0x00, 0x00, 0xeb, 0x03, 0x00, 0x00, 0x00, 0x00, 0x0a, 0x00,
  0x10, 0x00, 0x0c, 0x00, 0x08, 0x00, 0x04, 0x00, 0x0a, 0x00, 0x00, 0x00,
  0x03, 0x00, 0x00, 0x00, 0x02, 0x00, 0x00, 0x00, 0x04, 0x00, 0x00, 0x00,
  0x06, 0x00, 0x00, 0x00, 0x32, 0x2e, 0x31, 0x31, 0x2e, 0x31, 0x00, 0x00,
  0x56, 0xfa, 0xff, 0xff, 0x04, 0x00, 0x00, 0x00, 0x10, 0x00, 0x00, 0x00,
  0x31, 0x2e, 0x31, 0x34, 0x2e, 0x30, 0x00, 0x00, 0x00, 0x00, 0x00, 0x00,
  0x00, 0x00, 0x00, 0x00, 0x40, 0xfa, 0xff, 0xff, 0x44, 0xfa, 0xff, 0xff,
  0x48, 0xfa, 0xff, 0xff, 0x4c, 0xfa, 0xff, 0xff, 0x82, 0xfa, 0xff, 0xff,
  0x04, 0x00, 0x00, 0x00, 0x0c, 0x03, 0x00, 0x00, 0x18, 0xaa, 0xd3, 0x2f,
  0x27, 0x59, 0x24, 0xf8, 0x17, 0xdc, 0xfd, 0x09, 0xe5, 0xcb, 0x31, 0x19,
  0x10, 0x1f, 0x3b, 0xe9, 0x24, 0xe3, 0x02, 0xfb, 0xd3, 0x20, 0xb5, 0xee,
  0xec, 0xc7, 0x06, 0x32, 0x46, 0xf7, 0xe1, 0x1c, 0xeb, 0x0f, 0x06, 0x9d,
  0x13, 0x06, 0x1c, 0xe4, 0x4f, 0x31, 0xff, 0x0c, 0x0a, 0xd3, 0x00, 0x16,
  0x04, 0x28, 0xd3, 0x43, 0x16, 0x66, 0xce, 0xda, 0xef, 0xf5, 0xf3, 0xf8,
  0x01, 0xd3, 0x25, 0xec, 0x04, 0x2e, 0x44, 0x54, 0x4a, 0x07, 0xde, 0xbe,
  0xbb, 0xfc, 0x2e, 0xd5, 0xb7, 0xe5, 0x12, 0x02, 0x3e, 0x25, 0x3b, 0xe2,
  0xcc, 0x03, 0xdc, 0x26, 0x06, 0x17, 0x11, 0xf6, 0x06, 0x38, 0x26, 0xbc,
  0x11, 0xc5, 0xf7, 0xf7, 0x24, 0xfd, 0xe6, 0xe7, 0xe6, 0x10, 0x0c, 0xbe,
  0x01, 0xdd, 0xcf, 0xfe, 0x30, 0xa1, 0xf3, 0xf2, 0x2e, 0xe8, 0x06, 0xe8,
  0x0f, 0x06, 0x8a, 0x03, 0x0f, 0x00, 0x10, 0xdb, 0xe9, 0xf5, 0xe2, 0x03,
  0x28, 0xca, 0xfc, 0xd0, 0xd6, 0x12, 0x16, 0xd1, 0xf5, 0x1a, 0x45, 0xe8,
  0xdb, 0x04, 0xdb, 0x21, 0xda, 0x0c, 0xb6, 0xf3, 0x50, 0xd1, 0x0a, 0xf4,
  0xe4, 0xd4, 0x15, 0xfe, 0xda, 0x29, 0xf2, 0x09, 0xeb, 0xe8, 0xbd, 0x16,
  0x1a, 0x01, 0x08, 0xee, 0x0c, 0x2a, 0xfa, 0x00, 0xf0, 0xf8, 0x07, 0xcc,
  0xdd, 0xdd, 0x0a, 0xdd, 0x3c, 0xf8, 0xe8, 0xca, 0xc2, 0xb6, 0xe6, 0xf2,
  0x2f, 0xff, 0xe7, 0xca, 0xe2, 0x0a, 0x32, 0xdb, 0x15, 0xce, 0xec, 0xbd,
  0x2d, 0x52, 0xf8, 0xcb, 0x17, 0xf6, 0x14, 0xe8, 0xdf, 0x06, 0xd7, 0x33,
  0xf4, 0x22, 0xf5, 0xe9, 0x3b, 0x23, 0xdd, 0x09, 0xec, 0x01, 0xeb, 0x1c,
  0xf9, 0x18, 0x34, 0x34, 0xe9, 0xea, 0xf1, 0xb5, 0xee, 0x2c, 0xf2, 0x2e,
  0x0f, 0x02, 0x06, 0x0c, 0xf4, 0xfc, 0xe1, 0xe6, 0x11, 0x0a, 0xe2, 0x0b,
  0xdc, 0x15, 0xdf, 0xe9, 0x27, 0x93, 0x1d, 0xe6, 0xe9, 0xe0, 0x12, 0xf7,
  0xc2, 0x42, 0xe8, 0x1e, 0xd6, 0x20, 0xbe, 0xf3, 0x34, 0x27, 0x31, 0x21,
  0x15, 0xf7, 0x11, 0xec, 0x24, 0xe8, 0x05, 0xdf, 0xca, 0x02, 0xee, 0x0c,
  0x33, 0x32, 0xfb, 0xdf, 0x1c, 0x0c, 0x43, 0xd9, 0x62, 0xd6, 0x00, 0x04,
  0x5b, 0x34, 0xe7, 0xfa, 0xe5, 0x0b, 0xfa, 0x4b, 0x48, 0xf0, 0x20, 0x07,
  0x1b, 0x44, 0xf5, 0xdd, 0xe0, 0xf0, 0xfa, 0x13, 0x00, 0xeb, 0xf1, 0xed,
  0x14, 0xf9, 0x5e, 0xea, 0xf7, 0x01, 0x10, 0x01, 0x16, 0x15, 0x1c, 0xea,
  0x2f, 0xb5, 0x05, 0xe1, 0xe5, 0xf9, 0xdd, 0xfe, 0xc2, 0x35, 0xd5, 0xde,
  0xd8, 0xe5, 0x03, 0xcf, 0x5a, 0xec, 0xee, 0xf3, 0xb7, 0xd8, 0xdb, 0xc6,
  0xda, 0xd4, 0x25, 0x16, 0x36, 0x16, 0xcd, 0xba, 0x04, 0xea, 0x0b, 0x16,
  0x17, 0x11, 0xff, 0x07, 0x24, 0xdd, 0xe3, 0xc5, 0xd9, 0x2e, 0x0d, 0x2e,
  0x26, 0x0f, 0x3d, 0xf9, 0x2a, 0xd6, 0x03, 0xe0, 0x04, 0xf8, 0xfa, 0x05,
  0xdd, 0x18, 0x19, 0xe9, 0xe9, 0xea, 0xed, 0xdb, 0xfa, 0x13, 0xc4, 0x15,
  0xd2, 0x24, 0x2d, 0xf8, 0x17, 0xe4, 0x35, 0x1b, 0xc5, 0x81, 0xba, 0xee,
  0x49, 0x39, 0xf6, 0xd7, 0xe9, 0x05, 0xf3, 0x1b, 0x04, 0xff, 0xe3, 0x3a,
  0xe9, 0x31, 0x09, 0x5d, 0x3c, 0x3f, 0x05, 0xcf, 0x21, 0xfa, 0xfe, 0x2a,
  0x08, 0xe1, 0xe8, 0x22, 0xe5, 0xfb, 0xf9, 0x05, 0x9d, 0x2d, 0x08, 0xc9,
  0xe0, 0x0b, 0xee, 0x31, 0xf8, 0xd5, 0xf1, 0xf3, 0xd2, 0x82, 0xfd, 0xf6,
  0xf0, 0x8d, 0xe3, 0xd9, 0xcf, 0x0c, 0xdd, 0xc1, 0xfd, 0x1a, 0xcf, 0x1d,
  0x2b, 0x12, 0xf4, 0xf1, 0x3f, 0x21, 0xe4, 0x1b, 0x0f, 0xe3, 0x0f, 0x0b,
  0x0b, 0x13, 0xe5, 0x0a, 0xbb, 0x31, 0xfa, 0xfc, 0x02, 0xc8, 0xb5, 0xe2,
  0xfa, 0xff, 0xe0, 0xff, 0xe1, 0xd9, 0x4a, 0x07, 0x4f, 0x1d, 0x14, 0x3b,
  0xcd, 0x01, 0x02, 0xbb, 0x01, 0x8c, 0xcc, 0xe4, 0xe1, 0x00, 0xe9, 0xe3,
  0xc2, 0x9f, 0x01, 0xf6, 0xef, 0xf0, 0xcf, 0xf4, 0xe5, 0xe2, 0x2c, 0x25,
  0xff, 0x18, 0x65, 0x20, 0xfd, 0x05, 0xfa, 0xa1, 0xe8, 0x37, 0x29, 0x26,
  0x1b, 0xd1, 0xc7, 0x6d, 0x0c, 0xf0, 0xcb, 0x0a, 0xe3, 0xf3, 0x62, 0x36,
  0x0a, 0x23, 0xd8, 0xed, 0x2d, 0x16, 0x14, 0x03, 0x4a, 0xdb, 0xc7, 0x08,
  0xf0, 0xc1, 0xde, 0x21, 0x34, 0x00, 0xc6, 0xe0, 0xd8, 0xc7, 0x32, 0x24,
  0x20, 0x3c, 0x0d, 0x01, 0x13, 0x3f, 0x76, 0xfe, 0x22, 0xf8, 0xc9, 0x5b,
  0x33, 0x08, 0x4f, 0xfb, 0x4e, 0x30, 0x3c, 0x02, 0x36, 0x11, 0xf1, 0x14,
  0x1c, 0x17, 0x5a, 0x2d, 0x59, 0x61, 0x28, 0x64, 0xe9, 0xf4, 0xf6, 0xca,
  0x14, 0xf3, 0xbe, 0xb1, 0xf4, 0xc8, 0xcc, 0xe8, 0xef, 0x19, 0xb1, 0x11,
  0xbf, 0x13, 0x26, 0xc7, 0xbf, 0xed, 0x1d, 0xf2, 0x24, 0xf0, 0x0a, 0x5b,
  0xf6, 0x01, 0x2c, 0x0a, 0x03, 0xc6, 0xec, 0x09, 0x1f, 0xfa, 0xf0, 0x23,
  0x02, 0x25, 0x4f, 0x4a, 0xd3, 0xe9, 0x40, 0x0e, 0xed, 0xe9, 0x25, 0xe4,
  0x54, 0x04, 0xf8, 0x02, 0x2d, 0x35, 0x26, 0x61, 0x02, 0xfe, 0x35, 0xe8,
  0xd0, 0x48, 0x08, 0x0a, 0x0a, 0x08, 0xe8, 0x22, 0x24, 0x2b, 0x3b, 0x31,
  0xfb, 0x26, 0xa8, 0xe0, 0x13, 0xab, 0x13, 0x1b, 0xcf, 0xd8, 0xf5, 0xd5,
  0xca, 0xe6, 0xc5, 0x97, 0xcd, 0xf2, 0xec, 0xe3, 0xdc, 0x05, 0xb0, 0x1c,
  0xd7, 0x1c, 0xe7, 0xd7, 0xfc, 0xf0, 0xdc, 0xc7, 0x30, 0x87, 0xac, 0xaf,
  0x44, 0x3d, 0x17, 0xf2, 0xea, 0x48, 0x2b, 0x15, 0xe6, 0x0d, 0xcf, 0x09,
  0x00, 0x24, 0x3d, 0xdf, 0x37, 0x02, 0x14, 0x2b, 0xfb, 0x1c, 0x35, 0x91,
  0xf9, 0xdb, 0xd5, 0x41, 0xc9, 0x0a, 0xfe, 0x37, 0x27, 0x01, 0x2a, 0xe7,
  0xf0, 0xef, 0xba, 0x0e, 0x2c, 0xe1, 0x3e, 0x0b, 0x9a, 0xfd, 0xff, 0xff,
  0x04, 0x00, 0x00, 0x00, 0x50, 0x00, 0x00, 0x00, 0xe9, 0xff, 0xff, 0xff,
  0x30, 0x00, 0x00, 0x00, 0x20, 0x00, 0x00, 0x00, 0x4f, 0x00, 0x00, 0x00,
  0x1d, 0x00, 0x00, 0x00, 0xe7, 0xff, 0xff, 0xff, 0xe5, 0xff, 0xff, 0xff,
  0x15, 0x00, 0x00, 0x00, 0xca, 0xff, 0xff, 0xff, 0x2a, 0x00, 0x00, 0x00,
  0x09, 0x00, 0x00, 0x00, 0x1b, 0x00, 0x00, 0x00, 0x4b, 0x00, 0x00, 0x00,
  0xf7, 0xff, 0xff, 0xff, 0x0a, 0x00, 0x00, 0x00, 0x18, 0x00, 0x00, 0x00,
  0x94, 0xff, 0xff, 0xff, 0x51, 0x00, 0x00, 0x00, 0xc6, 0xff, 0xff, 0xff,
  0xf4, 0xff, 0xff, 0xff, 0xf6, 0xfd, 0xff, 0xff, 0x04, 0x00, 0x00, 0x00,
  0xc8, 0x00, 0x00, 0x00, 0x0a, 0xcc, 0xd0, 0x00, 0x1a, 0xf0, 0x34, 0xbd,
  0xec, 0xed, 0xfc, 0xf9, 0x17, 0x2a, 0x07, 0xc5, 0xf6, 0xda, 0xbc, 0xff,
  0xb6, 0xb6, 0x3b, 0x2b, 0x2b, 0xf4, 0xd9, 0xad, 0xd6, 0xf3, 0x04, 0x05,
  0x2a, 0xfc, 0x40, 0x3c, 0xcc, 0x2d, 0xe9, 0x22, 0xe8, 0xa8, 0xf2, 0x3a,
  0xe2, 0xce, 0xed, 0x04, 0xe6, 0xf1, 0x14, 0x16, 0xe6, 0xc5, 0xee, 0xd0,
  0x11, 0xbe, 0xc0, 0xd6, 0x2e, 0x26, 0x46, 0x05, 0xbe, 0x2f, 0xd1, 0xdf,
  0xf0, 0x3f, 0x4d, 0x2a, 0xc9, 0x81, 0xdd, 0xd7, 0xf3, 0xed, 0x65, 0x2a,
  0xfe, 0x21, 0xfd, 0xe9, 0xf3, 0x3b, 0x0e, 0x18, 0xbf, 0xff, 0x2f, 0x18,
  0xfd, 0x76, 0x32, 0xdb, 0xbf, 0x41, 0x15, 0x3d, 0x17, 0x2d, 0xec, 0x44,
  0x21, 0x9f, 0x00, 0x1f, 0xb5, 0xf9, 0x3b, 0x2a, 0xed, 0x07, 0xd3, 0xdb,
  0xce, 0x2d, 0xf1, 0x0f, 0x2f, 0x38, 0xc3, 0xbb, 0x33, 0x22, 0xf3, 0x07,
  0x02, 0xd1, 0x37, 0x15, 0xc7, 0xd2, 0xed, 0x03, 0x3a, 0xfa, 0xfb, 0xdd,
  0xd2, 0x2d, 0xd8, 0x0d, 0x17, 0x57, 0x66, 0xb7, 0x54, 0x0b, 0xbd, 0x4c,
  0x2b, 0x15, 0xc4, 0x0b, 0x2b, 0x2c, 0x17, 0x3f, 0x3c, 0x47, 0x08, 0x06,
  0x23, 0xbe, 0xcc, 0x17, 0xf9, 0xff, 0x43, 0xff, 0xe5, 0xdc, 0xe2, 0x79,
  0xd1, 0x1a, 0xc8, 0x8d, 0x47, 0xa0, 0x26, 0xf5, 0x50, 0x5f, 0xcf, 0xf9,
  0x37, 0xd5, 0xdf, 0x2c, 0xd9, 0xe5, 0x21, 0xf3, 0xf7, 0x3d, 0xd5, 0x3a,
  0xca, 0xfe, 0xff, 0xff, 0x04, 0x00, 0x00, 0x00, 0x28, 0x00, 0x00, 0x00,
  0x95, 0xff, 0xff, 0xff, 0x81, 0x00, 0x00, 0x00, 0x8b, 0xff, 0xff, 0xff,
  0xf2, 0xff, 0xff, 0xff, 0xaa, 0x00, 0x00, 0x00, 0x7e, 0x00, 0x00, 0x00,
  0x01, 0x00, 0x00, 0x00, 0x62, 0xff, 0xff, 0xff, 0x87, 0x00, 0x00, 0x00,
  0x67, 0xff, 0xff, 0xff, 0xfe, 0xfe, 0xff, 0xff, 0x04, 0x00, 0x00, 0x00,
  0x3c, 0x00, 0x00, 0x00, 0x2a, 0x1e, 0xfb, 0x66, 0xaa, 0x27, 0x1b, 0x10,
  0xa5, 0xec, 0x21, 0xa5, 0xd5, 0x4f, 0x28, 0xe7, 0xfc, 0xb4, 0x7a, 0x9e,
  0xd5, 0x6a, 0xae, 0xc9, 0x34, 0x50, 0xc4, 0x0e, 0xe5, 0x02, 0xf2, 0xcd,
  0xef, 0xa5, 0x53, 0xd8, 0xa2, 0x35, 0xc5, 0x3d, 0x26, 0x9f, 0xf9, 0x81,
  0xdf, 0x37, 0x69, 0x22, 0x35, 0x17, 0xee, 0x0b, 0xc8, 0xcf, 0x10, 0xa1,
  0x2d, 0x03, 0x0a, 0x55, 0x46, 0xff, 0xff, 0xff, 0x04, 0x00, 0x00, 0x00,
  0x18, 0x00, 0x00, 0x00, 0xe3, 0xfd, 0xff, 0xff, 0x5c, 0x01, 0x00, 0x00,
  0x70, 0x00, 0x00, 0x00, 0x1e, 0x01, 0x00, 0x00, 0x49, 0xff, 0xff, 0xff,
  0x46, 0xff, 0xff, 0xff, 0x38, 0xff, 0xff, 0xff, 0x3c, 0xff, 0xff, 0xff,
  0x0f, 0x00, 0x00, 0x00, 0x4d, 0x4c, 0x49, 0x52, 0x20, 0x43, 0x6f, 0x6e,
  0x76, 0x65, 0x72, 0x74, 0x65, 0x64, 0x2e, 0x00, 0x01, 0x00, 0x00, 0x00,
  0x14, 0x00, 0x00, 0x00, 0x00, 0x00, 0x0e, 0x00, 0x18, 0x00, 0x14, 0x00,
  0x10, 0x00, 0x0c, 0x00, 0x08, 0x00, 0x04, 0x00, 0x0e, 0x00, 0x00, 0x00,
  0x14, 0x00, 0x00, 0x00, 0x1c, 0x00, 0x00, 0x00, 0x28, 0x01, 0x00, 0x00,
  0x2c, 0x01, 0x00, 0x00, 0x30, 0x01, 0x00, 0x00, 0x04, 0x00, 0x00, 0x00,
  0x6d, 0x61, 0x69, 0x6e, 0x00, 0x00, 0x00, 0x00, 0x04, 0x00, 0x00, 0x00,
  0xd0, 0x00, 0x00, 0x00, 0x88, 0x00, 0x00, 0x00, 0x50, 0x00, 0x00, 0x00,
  0x14, 0x00, 0x00, 0x00, 0x00, 0x00, 0x0e, 0x00, 0x1a, 0x00, 0x14, 0x00,
  0x10, 0x00, 0x0c, 0x00, 0x0b, 0x00, 0x04, 0x00, 0x0e, 0x00, 0x00, 0x00,
  0x1c, 0x00, 0x00, 0x00, 0x00, 0x00, 0x00, 0x09, 0x1c, 0x00, 0x00, 0x00,
  0x20, 0x00, 0x00, 0x00, 0x01, 0x00, 0x00, 0x00, 0x00, 0x00, 0x06, 0x00,
  0x08, 0x00, 0x04, 0x00, 0x06, 0x00, 0x00, 0x00, 0x00, 0x00, 0x80, 0x3f,
  0x01, 0x00, 0x00, 0x00, 0x0a, 0x00, 0x00, 0x00, 0x01, 0x00, 0x00, 0x00,
  0x09, 0x00, 0x00, 0x00, 0x96, 0xff, 0xff, 0xff, 0x14, 0x00, 0x00, 0x00,
  0x00, 0x00, 0x00, 0x08, 0x10, 0x00, 0x00, 0x00, 0x14, 0x00, 0x00, 0x00,
  0x04, 0x00, 0x04, 0x00, 0x04, 0x00, 0x00, 0x00, 0x01, 0x00, 0x00, 0x00,
  0x09, 0x00, 0x00, 0x00, 0x03, 0x00, 0x00, 0x00, 0x08, 0x00, 0x00, 0x00,
  0x02, 0x00, 0x00, 0x00, 0x01, 0x00, 0x00, 0x00, 0xca, 0xff, 0xff, 0xff,
  0x10, 0x00, 0x00, 0x00, 0x00, 0x00, 0x00, 0x08, 0x10, 0x00, 0x00, 0x00,
  0x14, 0x00, 0x00, 0x00, 0xba, 0xff, 0xff, 0xff, 0x00, 0x00, 0x00, 0x01,
  0x01, 0x00, 0x00, 0x00, 0x08, 0x00, 0x00, 0x00, 0x03, 0x00, 0x00, 0x00,
  0x07, 0x00, 0x00, 0x00, 0x04, 0x00, 0x00, 0x00, 0x03, 0x00, 0x00, 0x00,
  0x00, 0x00, 0x0e, 0x00, 0x16, 0x00, 0x00, 0x00, 0x10, 0x00, 0x0c, 0x00,
  0x0b, 0x00, 0x04, 0x00, 0x0e, 0x00, 0x00, 0x00, 0x18, 0x00, 0x00, 0x00,
  0x00, 0x00, 0x00, 0x08, 0x18, 0x00, 0x00, 0x00, 0x1c, 0x00, 0x00, 0x00,
  0x00, 0x00, 0x06, 0x00, 0x08, 0x00, 0x07, 0x00, 0x06, 0x00, 0x00, 0x00,
  0x00, 0x00, 0x00, 0x01, 0x01, 0x00, 0x00, 0x00, 0x07, 0x00, 0x00, 0x00,
  0x03, 0x00, 0x00, 0x00, 0x00, 0x00, 0x00, 0x00, 0x06, 0x00, 0x00, 0x00,
  0x05, 0x00, 0x00, 0x00, 0x01, 0x00, 0x00, 0x00, 0x0a, 0x00, 0x00, 0x00,
  0x01, 0x00, 0x00, 0x00, 0x00, 0x00, 0x00, 0x00, 0x0b, 0x00, 0x00, 0x00,
  0xf8, 0x04, 0x00, 0x00, 0x68, 0x04, 0x00, 0x00, 0xfc, 0x03, 0x00, 0x00,
  0x80, 0x03, 0x00, 0x00, 0x14, 0x03, 0x00, 0x00, 0xa0, 0x02, 0x00, 0x00,
  0x34, 0x02, 0x00, 0x00, 0x98, 0x01, 0x00, 0x00, 0xf4, 0x00, 0x00, 0x00,
  0x70, 0x00, 0x00, 0x00, 0x04, 0x00, 0x00, 0x00, 0x4a, 0xfb, 0xff, 0xff,
  0x00, 0x00, 0x00, 0x01, 0x14, 0x00, 0x00, 0x00, 0x30, 0x00, 0x00, 0x00,
  0x0b, 0x00, 0x00, 0x00, 0x00, 0x00, 0x00, 0x09, 0x44, 0x00, 0x00, 0x00,
  0x34, 0xfb, 0xff, 0xff, 0x08, 0x00, 0x00, 0x00, 0x10, 0x00, 0x00, 0x00,
  0x01, 0x00, 0x00, 0x00, 0x80, 0xff, 0xff, 0xff, 0xff, 0xff, 0xff, 0xff,
  0x01, 0x00, 0x00, 0x00, 0x00, 0x00, 0x80, 0x3b, 0x19, 0x00, 0x00, 0x00,
  0x53, 0x74, 0x61, 0x74, 0x65, 0x66, 0x75, 0x6c, 0x50, 0x61, 0x72, 0x74,
  0x69, 0x74, 0x69, 0x6f, 0x6e, 0x65, 0x64, 0x43, 0x61, 0x6c, 0x6c, 0x3a,
  0x30, 0x00, 0x00, 0x00, 0x02, 0x00, 0x00, 0x00, 0x01, 0x00, 0x00, 0x00,
  0x06, 0x00, 0x00, 0x00, 0xb2, 0xfb, 0xff, 0xff, 0x00, 0x00, 0x00, 0x01,
  0x14, 0x00, 0x00, 0x00, 0x30, 0x00, 0x00, 0x00, 0x0a, 0x00, 0x00, 0x00,
  0x00, 0x00, 0x00, 0x09, 0x5c, 0x00, 0x00, 0x00, 0x9c, 0xfb, 0xff, 0xff,
  0x08, 0x00, 0x00, 0x00, 0x10, 0x00, 0x00, 0x00, 0x01, 0x00, 0x00, 0x00,
  0x2d, 0x00, 0x00, 0x00, 0x00, 0x00, 0x00, 0x00, 0x01, 0x00, 0x00, 0x00,
  0x4a, 0x36, 0x7a, 0x3e, 0x32, 0x00, 0x00, 0x00, 0x73, 0x65, 0x71, 0x75,
  0x65, 0x6e, 0x74, 0x69, 0x61, 0x6c, 0x2f, 0x79, 0x5f, 0x70, 0x72, 0x65,
  0x64, 0x2f, 0x4d, 0x61, 0x74, 0x4d, 0x75, 0x6c, 0x3b, 0x73, 0x65, 0x71,
  0x75, 0x65, 0x6e, 0x74, 0x69, 0x61, 0x6c, 0x2f, 0x79, 0x5f, 0x70, 0x72,
  0x65, 0x64, 0x2f, 0x42, 0x69, 0x61, 0x73, 0x41, 0x64, 0x64, 0x00, 0x00,
  0x02, 0x00, 0x00, 0x00, 0x01, 0x00, 0x00, 0x00, 0x06, 0x00, 0x00, 0x00,
  0x32, 0xfc, 0xff, 0xff, 0x00, 0x00, 0x00, 0x01, 0x14, 0x00, 0x00, 0x00,
  0x34, 0x00, 0x00, 0x00, 0x09, 0x00, 0x00, 0x00, 0x00, 0x00, 0x00, 0x09,
  0x7c, 0x00, 0x00, 0x00, 0x1c, 0xfc, 0xff, 0xff, 0x08, 0x00, 0x00, 0x00,
  0x14, 0x00, 0x00, 0x00, 0x01, 0x00, 0x00, 0x00, 0x80, 0xff, 0xff, 0xff,
  0xff, 0xff, 0xff, 0xff, 0x00, 0x00, 0x00, 0x00, 0x01, 0x00, 0x00, 0x00,
  0x58, 0xee, 0x34, 0x3e, 0x4c, 0x00, 0x00, 0x00, 0x73, 0x65, 0x71, 0x75,
  0x65, 0x6e, 0x74, 0x69, 0x61, 0x6c, 0x2f, 0x64, 0x65, 0x6e, 0x73, 0x65,
  0x5f, 0x31, 0x2f, 0x4d, 0x61, 0x74, 0x4d, 0x75, 0x6c, 0x3b, 0x73, 0x65,
  0x71, 0x75, 0x65, 0x6e, 0x74, 0x69, 0x61, 0x6c, 0x2f, 0x64, 0x65, 0x6e,
  0x73, 0x65, 0x5f, 0x31, 0x2f, 0x52, 0x65, 0x6c, 0x75, 0x3b, 0x73, 0x65,
  0x71, 0x75, 0x65, 0x6e, 0x74, 0x69, 0x61, 0x6c, 0x2f, 0x64, 0x65, 0x6e,
  0x73, 0x65, 0x5f, 0x31, 0x2f, 0x42, 0x69, 0x61, 0x73, 0x41, 0x64, 0x64,
  0x00, 0x00, 0x00, 0x00, 0x02, 0x00, 0x00, 0x00, 0x01, 0x00, 0x00, 0x00,
  0x0a, 0x00, 0x00, 0x00, 0xd2, 0xfc, 0xff, 0xff, 0x00, 0x00, 0x00, 0x01,
  0x14, 0x00, 0x00, 0x00, 0x34, 0x00, 0x00, 0x00, 0x08, 0x00, 0x00, 0x00,
  0x00, 0x00, 0x00, 0x09, 0x74, 0x00, 0x00, 0x00, 0xbc, 0xfc, 0xff, 0xff,
  0x08, 0x00, 0x00, 0x00, 0x14, 0x00, 0x00, 0x00, 0x01, 0x00, 0x00, 0x00,
  0x80, 0xff, 0xff, 0xff, 0xff, 0xff, 0xff, 0xff, 0x00, 0x00, 0x00, 0x00,
  0x01, 0x00, 0x00, 0x00, 0x96, 0xfc, 0x6c, 0x3e, 0x46, 0x00, 0x00, 0x00,
  0x73, 0x65, 0x71, 0x75, 0x65, 0x6e, 0x74, 0x69, 0x61, 0x6c, 0x2f, 0x64,
  0x65, 0x6e, 0x73, 0x65, 0x2f, 0x4d, 0x61, 0x74, 0x4d, 0x75, 0x6c, 0x3b,
  0x73, 0x65, 0x71, 0x75, 0x65, 0x6e, 0x74, 0x69, 0x61, 0x6c, 0x2f, 0x64,
  0x65, 0x6e, 0x73, 0x65, 0x2f, 0x52, 0x65, 0x6c, 0x75, 0x3b, 0x73, 0x65,
  0x71, 0x75, 0x65, 0x6e, 0x74, 0x69, 0x61, 0x6c, 0x2f, 0x64, 0x65, 0x6e,
  0x73, 0x65, 0x2f, 0x42, 0x69, 0x61, 0x73, 0x41, 0x64, 0x64, 0x00, 0x00,
  0x02, 0x00, 0x00, 0x00, 0x01, 0x00, 0x00, 0x00, 0x14, 0x00, 0x00, 0x00,
  0x6a, 0xfd, 0xff, 0xff, 0x00, 0x00, 0x00, 0x01, 0x14, 0x00, 0x00, 0x00,
  0x34, 0x00, 0x00, 0x00, 0x07, 0x00, 0x00, 0x00, 0x00, 0x00, 0x00, 0x09,
  0x44, 0x00, 0x00, 0x00, 0x54, 0xfd, 0xff, 0xff, 0x08, 0x00, 0x00, 0x00,
  0x14, 0x00, 0x00, 0x00, 0x01, 0x00, 0x00, 0x00, 0x00, 0x00, 0x00, 0x00,
  0x00, 0x00, 0x00, 0x00, 0x00, 0x00, 0x00, 0x00, 0x01, 0x00, 0x00, 0x00,
  0x1f, 0xd9, 0xc5, 0x3b, 0x17, 0x00, 0x00, 0x00, 0x73, 0x65, 0x71, 0x75,
  0x65, 0x6e, 0x74, 0x69, 0x61, 0x6c, 0x2f, 0x64, 0x65, 0x6e, 0x73, 0x65,
  0x2f, 0x4d, 0x61, 0x74, 0x4d, 0x75, 0x6c, 0x00, 0x02, 0x00, 0x00, 0x00,
  0x14, 0x00, 0x00, 0x00, 0x27, 0x00, 0x00, 0x00, 0xd2, 0xfd, 0xff, 0xff,
  0x00, 0x00, 0x00, 0x01, 0x14, 0x00, 0x00, 0x00, 0x30, 0x00, 0x00, 0x00,
  0x06, 0x00, 0x00, 0x00, 0x00, 0x00, 0x00, 0x02, 0x50, 0x00, 0x00, 0x00,
  0xbc, 0xfd, 0xff, 0xff, 0x08, 0x00, 0x00, 0x00, 0x10, 0x00, 0x00, 0x00,
  0x01, 0x00, 0x00, 0x00, 0x00, 0x00, 0x00, 0x00, 0x00, 0x00, 0x00, 0x00,
  0x01, 0x00, 0x00, 0x00, 0x31, 0xa1, 0x81, 0x3b, 0x27, 0x00, 0x00, 0x00,
  0x73, 0x65, 0x71, 0x75, 0x65, 0x6e, 0x74, 0x69, 0x61, 0x6c, 0x2f, 0x64,
  0x65, 0x6e, 0x73, 0x65, 0x2f, 0x42, 0x69, 0x61, 0x73, 0x41, 0x64, 0x64,
  0x2f, 0x52, 0x65, 0x61, 0x64, 0x56, 0x61, 0x72, 0x69, 0x61, 0x62, 0x6c,
  0x65, 0x4f, 0x70, 0x00, 0x01, 0x00, 0x00, 0x00, 0x14, 0x00, 0x00, 0x00,
  0x42, 0xfe, 0xff, 0xff, 0x00, 0x00, 0x00, 0x01, 0x14, 0x00, 0x00, 0x00,
  0x30, 0x00, 0x00, 0x00, 0x05, 0x00, 0x00, 0x00, 0x00, 0x00, 0x00, 0x09,
  0x44, 0x00, 0x00, 0x00, 0x2c, 0xfe, 0xff, 0xff, 0x08, 0x00, 0x00, 0x00,
  0x10, 0x00, 0x00, 0x00, 0x01, 0x00, 0x00, 0x00, 0x00, 0x00, 0x00, 0x00,
  0x00, 0x00, 0x00, 0x00, 0x01, 0x00, 0x00, 0x00, 0x32, 0xdd, 0xd6, 0x3b,
  0x19, 0x00, 0x00, 0x00, 0x73, 0x65, 0x71, 0x75, 0x65, 0x6e, 0x74, 0x69,
  0x61, 0x6c, 0x2f, 0x64, 0x65, 0x6e, 0x73, 0x65, 0x5f, 0x31, 0x2f, 0x4d,
  0x61, 0x74, 0x4d, 0x75, 0x6c, 0x00, 0x00, 0x00, 0x02, 0x00, 0x00, 0x00,
  0x0a, 0x00, 0x00, 0x00, 0x14, 0x00, 0x00, 0x00, 0xaa, 0xfe, 0xff, 0xff,
  0x00, 0x00, 0x00, 0x01, 0x14, 0x00, 0x00, 0x00, 0x34, 0x00, 0x00, 0x00,
  0x04, 0x00, 0x00, 0x00, 0x00, 0x00, 0x00, 0x02, 0x58, 0x00, 0x00, 0x00,
  0x94, 0xfe, 0xff, 0xff, 0x08, 0x00, 0x00, 0x00, 0x14, 0x00, 0x00, 0x00,
  0x01, 0x00, 0x00, 0x00, 0x00, 0x00, 0x00, 0x00, 0x00, 0x00, 0x00, 0x00,
  0x00, 0x00, 0x00, 0x00, 0x01, 0x00, 0x00, 0x00, 0xea, 0xe7, 0xc6, 0x3a,
  0x29, 0x00, 0x00, 0x00, 0x73, 0x65, 0x71, 0x75, 0x65, 0x6e, 0x74, 0x69,
  0x61, 0x6c, 0x2f, 0x64, 0x65, 0x6e, 0x73, 0x65, 0x5f, 0x31, 0x2f, 0x42,
  0x69, 0x61, 0x73, 0x41, 0x64, 0x64, 0x2f, 0x52, 0x65, 0x61, 0x64, 0x56,
  0x61, 0x72, 0x69, 0x61, 0x62, 0x6c, 0x65, 0x4f, 0x70, 0x00, 0x00, 0x00,
  0x01, 0x00, 0x00, 0x00, 0x0a, 0x00, 0x00, 0x00, 0x22, 0xff, 0xff, 0xff,
  0x00, 0x00, 0x00, 0x01, 0x14, 0x00, 0x00, 0x00, 0x30, 0x00, 0x00, 0x00,
  0x03, 0x00, 0x00, 0x00, 0x00, 0x00, 0x00, 0x09, 0x44, 0x00, 0x00, 0x00,
  0x0c, 0xff, 0xff, 0xff, 0x08, 0x00, 0x00, 0x00, 0x10, 0x00, 0x00, 0x00,
  0x01, 0x00, 0x00, 0x00, 0x00, 0x00, 0x00, 0x00, 0x00, 0x00, 0x00, 0x00,
  0x01, 0x00, 0x00, 0x00, 0x55, 0x4b, 0x05, 0x3c, 0x18, 0x00, 0x00, 0x00,
  0x73, 0x65, 0x71, 0x75, 0x65, 0x6e, 0x74, 0x69, 0x61, 0x6c, 0x2f, 0x79,
  0x5f, 0x70, 0x72, 0x65, 0x64, 0x2f, 0x4d, 0x61, 0x74, 0x4d, 0x75, 0x6c,
  0x00, 0x00, 0x00, 0x00, 0x02, 0x00, 0x00, 0x00, 0x06, 0x00, 0x00, 0x00,
  0x0a, 0x00, 0x00, 0x00, 0x8a, 0xff, 0xff, 0xff, 0x00, 0x00, 0x00, 0x01,
  0x14, 0x00, 0x00, 0x00, 0x30, 0x00, 0x00, 0x00, 0x02, 0x00, 0x00, 0x00,
  0x00, 0x00, 0x00, 0x02, 0x54, 0x00, 0x00, 0x00, 0x74, 0xff, 0xff, 0xff,
  0x08, 0x00, 0x00, 0x00, 0x10, 0x00, 0x00, 0x00, 0x01, 0x00, 0x00, 0x00,
  0x00, 0x00, 0x00, 0x00, 0x00, 0x00, 0x00, 0x00, 0x01, 0x00, 0x00, 0x00,
  0x23, 0x6a, 0xbc, 0x3a, 0x28, 0x00, 0x00, 0x00, 0x73, 0x65, 0x71, 0x75,
  0x65, 0x6e, 0x74, 0x69, 0x61, 0x6c, 0x2f, 0x79, 0x5f, 0x70, 0x72, 0x65,
  0x64, 0x2f, 0x42, 0x69, 0x61, 0x73, 0x41, 0x64, 0x64, 0x2f, 0x52, 0x65,
  0x61, 0x64, 0x56, 0x61, 0x72, 0x69, 0x61, 0x62, 0x6c, 0x65, 0x4f, 0x70,
  0x00, 0x00, 0x00, 0x00, 0x01, 0x00, 0x00, 0x00, 0x06, 0x00, 0x00, 0x00,
  0x00, 0x00, 0x16, 0x00, 0x1c, 0x00, 0x18, 0x00, 0x17, 0x00, 0x10, 0x00,
  0x0c, 0x00, 0x08, 0x00, 0x00, 0x00, 0x00, 0x00, 0x00, 0x00, 0x07, 0x00,
  0x16, 0x00, 0x00, 0x00, 0x00, 0x00, 0x00, 0x01, 0x20, 0x00, 0x00, 0x00,
  0x40, 0x00, 0x00, 0x00, 0x01, 0x00, 0x00, 0x00, 0x00, 0x00, 0x00, 0x09,
  0x4c, 0x00, 0x00, 0x00, 0x0c, 0x00, 0x0c, 0x00, 0x00, 0x00, 0x00, 0x00,
  0x08, 0x00, 0x04, 0x00, 0x0c, 0x00, 0x00, 0x00, 0x08, 0x00, 0x00, 0x00,
  0x14, 0x00, 0x00, 0x00, 0x01, 0x00, 0x00, 0x00, 0x92, 0xff, 0xff, 0xff,
  0xff, 0xff, 0xff, 0xff, 0x00, 0x00, 0x00, 0x00, 0x01, 0x00, 0x00, 0x00,
  0x0a, 0xbb, 0x27, 0x3f, 0x13, 0x00, 0x00, 0x00, 0x73, 0x65, 0x72, 0x76,
  0x69, 0x6e, 0x67, 0x5f, 0x64, 0x65, 0x66, 0x61, 0x75, 0x6c, 0x74, 0x5f,
  0x78, 0x3a, 0x30, 0x00, 0x02, 0x00, 0x00, 0x00, 0x01, 0x00, 0x00, 0x00,
  0x27, 0x00, 0x00, 0x00, 0x02, 0x00, 0x00, 0x00, 0x24, 0x00, 0x00, 0x00,
  0x04, 0x00, 0x00, 0x00, 0xf0, 0xff, 0xff, 0xff, 0x19, 0x00, 0x00, 0x00,
  0x02, 0x00, 0x00, 0x00, 0x00, 0x00, 0x00, 0x19, 0x0c, 0x00, 0x10, 0x00,
  0x0f, 0x00, 0x00, 0x00, 0x08, 0x00, 0x04, 0x00, 0x0c, 0x00, 0x00, 0x00,
  0x09, 0x00, 0x00, 0x00, 0x04, 0x00, 0x00, 0x00, 0x00, 0x00, 0x00, 0x09
};
unsigned int tflite_learn_7_len = 3552;
#endif // _EI_CLASSIFIER_TFLITE_LEARN_7_H_
